0000005daac91e25dab8958c5a243055906fec65f07bcb2cd8aa48f23c3b6f297475311fc8531fdd722352ba158bd025db555d1be518c79622c197147a59ac4a029cbc50
00000xf72760a2a82d5781f40d009628a0fe0b764a8c74f07fd3d2c4f487dd7c2366b8a70611cab3b3ea68ee796ee159eed3980da95d5fb3c4d103d3cbea1114d7141576
000000a876039cfef6e9ba404bfe838b3aa8629adae4bcfd5949e5a829ac68064face01786f12fd925f2a43fa7ec98f24188fd8f8bf941bde84e3a940d0224ed4225495a
000001b6af43934354a082c0cdf02bd2ca3f0ea361ef3c042111796b0fb24558cbf5fe9ba89559239dd98835d40284fd0f5f0e48b68485e276735625ef51710c267ea573
000001e97a94406b1642a89ca7f955e0ce3cdfb990d8b4e0ea73734c753fcde30e05cda69b70e005fcaab64077c1a8506abd4e71261031a00e46d985d20ede6f855d86c5
00000127690639bc06d6c1c5050b3c4dd80905a3a93d94a40b574d8f2bec23a44f07c88974d03771d5586095c169a29c870676c82b6869b0f6f9a52c320ba8979026e47e
0000027d23372c03d4caab2d2008cddb5a9fe22d227445488f6dbc5ce951b5c95ab53d54c0404ae4c024849110998c73d9bf34317d8adea91aa1c228f4d62e53a909909e
00000125584eaa09bef6c03f5da4cb4ecca1484ba551135ba14e56dd36836d9530782ac14217ec4576bf6378ac174de37eb5b235c30f6904120c8ee1fd1df4765b39f6eb
0000x312ca90526580d131a09c88084d4303a8a825931a9ea2b35c5d0bfb142664e2b39814d20a61fc71b278472ba9ec1295c71fe1336bac28f21228c74438708d3077b7
00000x5b73fc31d729cb51390f39fbaa6d1e6b9d7f4874dd16af484b8c7f496052bfb85146c3b8157de1c3a7eeced2e92d7d67b7b60e03133ada60e8a7230de63321dcca
0000023e8b779da4dbf7cbcd92ee24bb5037c97a8760e20cc75f6e700bd6dfce52617e3187302a307191210f43d4905aa6462d544215a67b1b7277d767388194cf1270e7
000000fe6e6c9d053fa7e28b04ab2ff8626035e9b55c2374779a538e03bc3798ef6f99993e675773ec8c422ef743d8aa030e9dc2faaafde911672cc938b10fb95c64de1f
000002e63ce8fbc1ac47e2fd70854120fc5666e7b115758b771c1755ba27ec2023b27fd5c66f4b95cb6d9b179a5ef295eda63a810d53afc693cf26eff3f57d0daf0de50c
0000x1396d1acdcc81d8b5b0d4171f1cd56c3799142349903eabc9960e12940d45f781e0ee41207b6c0aeb67333c0780b13b663cbe343989420432798b1d4533bd090c86
00000xe565718a92fe28005cf0abc048a81ee8999f579fa16d9a4f0fd0110328e85b82874b814f998df6a101698838baccfcb3e5133b409a1232d73a7b82dcc1942966b7
000002669c8280e3b0a336d2c65738060a202e1c7a9a373b9f15762bc0f71778716edf5ba708d8f581440e58dc7e7da0050534a81abf93d2b48e27d5a395aadd23fab76c
000002a5d0f0ae489ce532557ca004c7da37204039bbae6d056b4c81f4bdd48cad75950b8334fe560d7f9da4746d5d3546b98c97c0e69ff5599dd16f9f4719137ec6dfa0
000001b38ea4193cb53266ac83008cbcf0e3c3f0f1e9fef5b20a6b91f7525ef2e09cce318b5751e185a4dd767c95ead0b00058c787c5d74e38212331bb35240dbb34c5a0
0000007a4b3de3495914510619969e012b21a42497387f7bb4822ce95cf5f1b1f4e1b2c99cabe9fac65eea1ff9158355a6ddb67d31991fa201abef261817a41658e8021b
00000105172941a1e89ac71f820c1558420d2ed6fd65b3d1c14047421b57ec737ecde81d7bd22cdb5e59aaf1206d9562f4b32c95faf954c4f86c11db7278f1c75fd175d5
0000x28b6246967e698f1fcf2135fe8123bfe77d0b1ce47e7e6f42090c4fb55d974fe72d5bb9f5904bb26a57449e3f20b87c0da8f3e37d0a231833268ad45a830be50304
0000055f1e22a79b4815ab7be41afb6d23f73adbc5626a3ad7ab32008cd1768e67abe773c094c71806da4cc8d1d4e8174cecebbd4f7ed92d19deb0f1b4961a44063b6527
00000x49ee329dce65978bae04725a4a79ac5ec0578ebf73dd3895dfedc41a01698611921a2b629ee9db245a0d9b7517ecc0551df3ac12966e8376bd145ef348b14f5bd6
0000x3635b776be348d4cecb5a83d0b8bcf893da28711b7bfba4d05dc274d0326779220799bd655f69d53550593a208c0391b650bdef3d3e85ed441c5e0dec3d3d23582d
00000091f9a701ab99870c07a33ed1b698b647452f3eb13d0e024ba3a22ab5b7233e2b92daaa223ab6881d14743cc46556480b088bde52984a94ca83972f9e2609dc2465
0000005d551ceeb3712ee358214d9cddfd5fa41892c3dc8d160bea1d617c587cd0f53a9eae17574af3393defe4805a8e1fb65a7aa83ed92592d9a7b220bec0b713523ccf
0000x2bb998cc8e24ddbd04d3001299371863666c1a758c9243d9463e194b2fd566fd504330bd52091b9020cf8b64d3fe7ba01669fce4b1a21a9f529e591b0841ee08c07
000001d764f6d95b4e2b80cd3298eff3b13c25dceeec48f0c5ba67e78ffc135292109e3dc27b936128da8b685f56ec61c5fc728b42555a82053363f178d681dd6ef21c13
000004c951543e78aa7b693192cfdde53687ba04862a7b61f7077e889cb689a3d608daa8b15fb51f57f51bb20a57611b25bea74446bbfcf32439f346d8094169a8a3eb13
00000101aeb4dd670384fecb87a9f8b45fe235bdfe22c8bd0ec04904c2c8365e1a29c3c88178dadda19a8f6a3c433e9ac7a346bf020db13cc688c221bc743ea13de5c121
000000xab67410aa56a8aab0054abae3a01bc321d881dc34265ffd59bc8b3344030ebb85a16db5d65fec3ddf8342c51999d4f2df1d714b301bab0b1ee1e8d706a2243035
0000x24623d3188536511b0de32c739a88161cc1c5bb3fc9eb2a0b8dea37edf6067ffe43690ce5a1bb39c573bea37499160d9b2603cf77aeb336b8884c3f089a6860217c
00000131c27c8192100cf0e24420e8154739b3fae5e51fe0281910990968cb2fca963f0f70641975d9cfa948e86f5d7f217b5a923ec75ead704df24828e0e4e1081006a0
000001062e2397b4964c3c503f5e9950551c1a4fdf13c961a9b300ccc6ebb25eaaf25854daf3f5370492d6d07e3ec52c117a13493c12340dbf54778cda3292ca8577a35d
0000019fab04f56bdc9e4c0d296c8707403612ed5be04a11c7ae2d4434dbf74b2537c0a24c8893bc464cae32eda3910ab7b5660946ecba4ce0a0c1502259bf7de1a8d8e9
0000x10469e404b3a5a4bd7b131da86484f303bcd6db6792ba4b137777d7c603c145988147101f22947c01555f214c992f2d78c54d66efafb462b5405b19df02e639eb68
0000x1bf6d48261ea4a5a5be4129b20dca98478d154ba1d2ea49c25aad5b78dfd0ad56048cbe4239b3acc2a512cf38b477cdd2a22a8fc6633f4db92cbe029edffe95b4f3
00000294314a7e23050a20db614a455c30d338b9a475155db1feeccba9c053156ce6208f38c39fe5e63bee6df786144400985c43e72bc3a87063306a653d9a0bd3df1b70
000000a69e95dd0309e1d099ecb4f22a5892455b459f59577349e3cec975ea60b994b4500db91a1bbde4240959817e916e1f62f7f52a5b0a172532ed6aca169a6c10dc74
000001a17047c5fee369d30352b8d6bf60ea47108df5b8975697dada826e36973a529f980f278e6003385e142e50f37ac0b9806ac7caa4320f252daf6cd0bc9a0f4720eb
000001d30791aa7eb37a2a876492267d4a344310980620d9e89f568aca132e8ce86ab7763a9d6eef1bd8aca7a74282082df629d19ac29dc9f55f3b683d9daab2dbc2171b
00000x6b1b5a6a5736fad85ac67f78a45eaa3597a7aec49fc5c5f7dc25b43f3595b67afea12bbb40c0afc03f64c63674ac748d9968f800c3d9865fd4984de0a1f4e89a8a
0000033d42282c6b1238872f5cb8e57e0816c03a6b800b01f338a62521fbb792cdc1b1f140ae3d14916093c5e97804ce2d043606bfd15b71c13ffb541937107ed3eb1e61
0000x34941812c31bf1a4d96614eec3f7a2b3bceb31a13779e73b8b30a07439b102a31ef814b2c29ef515e6dee0ae5970cf3004f5f78bd180ed26ae82781daf199253ba9
0000007836445e2776d372909e98f5b230cd56e43b9905054babcf7f5482ac7701edbcaa9046cfa03276dd3f58faf9155fbdae0135f0be638adb295d366901c710a16442
0000x2b37a48741db7ebf00532979eeed18d7a9808f65ee234dab436ac32669c15425991de4fb8492b4918af1977eed7c4214b3ddd4ff57bb376cc70a1d3f1d0c9bf1808
00000350bd4e1619cae3877f5dc815c076ba8d4d3e6dd9424ae24a57d7d8894637fc01928038490ea5d4e2b4e018efe3ccb7d6cfcc742b7ce7716356d70f0c80bf2aa2e5
00000x8813c0ef74b8f8d208c65f6874d314f9788a9c55bb7dfab5fe9e76d0655668421840fa81c4c5faab7c8be39111fc13769d6374fb90ac6a27919c8436624eaba216
0000x28494de0739ea796d2157fbd68e5b096876fce5e0e5b7c0ebbe738e404a1e1afe717e24100d999d67d49f391dd7427978f957c740adcc161d8b5cc57e7ebce60c1f
0000x220de48da96ba92202d1d2ec511f88e3150b77380a17113a6b916193ed652058dc8f26844c4a46dbfdf92218ada05904420509e645f4d30de00c754bafb6e0bbba9
000002e7a3ca6bb33c4ba815d86bc55054ebddc1475067827c1ed9516b2cd4f3a5771cdb92c65f65519d1fc2a8272c2109cc293e3b05f021f4c2cad534b1d272d6b5a47a
0000013265fce22ff244fd1962087ce671ed1423a5a641657badefa9078161211c13d3c3b431bc817bd4c53906ea6a9f4d29bb1414737e0cd691cecd0636974319c6f42f
000005363acd400a83b8c2ae360138e7e3708465043de9d6ee9ebef1d3e1a593ab31fd9623b38743f6611fb000cb6a73f0c9f8466ea1e0bbbf932878e59f959dbdd2b84f
0000003f68bea588e189cdb1924ba73092c00fe003c1038815b33a7521ef4a199f43c86a1e2b89bbc4fb363aea754a55109cf8c60893eec71008432e00fed18a7827efc1
00000013e389baebaf24db3c6faf2d3f34cfbf1c7f6705ef260d2c7e0428956023703f252f0b1458b50f68bd23ec056b9525d513be58db83e941c7e6c7486fcc02fb63da
0000x263850e9da10b717bf65db8a4109af167e5fa6d813d0c71a70b843098bf14457499fe3d9db3872bbc54d7e26454f0452c1193a57c259a5fdac77052c3504296c0d6
0000026a2c88112c81b34d0ca510e410082691e4f35d73ff79b969cf370a23078a5829bcd18b6c29261ce14409d0c7399872ad16fc6f33c51274204cf925f6107016b8ac
000001a36dc0129c2fcb89c7b837fc0ce6e606688efa6c81135f257e3ab3bd8f3c3ac36be3a4e15f156e8115318692042824a90c915f545e4f815727672d6478a19664ae
0000009648702410f71ddb1223fb5fb8bba6af730670846f46995096a88520145ffb09ab0c7bba717849d904d6d65eb7229eaa7ce9c5f9047c7363224e32d6ad0a0aacea
00000xfb017e3cddc6b2d9096a598d62d6811e184c0d2d5885156e10ecf5cdfc25c51d6bdf13adc23310ee8b5bf9a0d7ab83fcb30ac94666f1f9336d6da13c999c6612cc
00000xe68a681f1082550fec5cb37bcc0fc7dad94068a76d4deaa1d0f16a731b711c90f7345a35aa18d1cb40423138cf30b2ed5f34ca430e378ef43e316b9091ae86e58b
00000xdb758cfca57b1025b52429ab7abd9ad010e74d44509c080fcc8e012f1d2ceb5318fdfa9a9e6db74cbdca129d9ed5f4781113645df730b8b1eab2c78ff514f04cf9
000000f3dda44b6b92ae697d72e046b81e0e28101b8225d38f271ea1b4af0ebe5e41ef405ce9d83ac4a0c758265b81ef4da0d0456f9155336743a78fd59718acdfe05c08
00000007d12ce6eac217c45f69c76623939ead0a07d8e6a498cb95f0a5b3bcec6f8ab4e875d12e681b516cd5f3aafd9283e5ab738c547fa63a29cebcf35909d94038e13e
0000000017213cd48dd98bee31009d3217a7e344575c2fb315afd8e02325481072054f4e12dee8e173cd1bd74a7df3589f00b9d42cf6f45b03f604ccabd7cd17c2da9add
0000000010d64e9ee643a75d3552eb945add0208b6cf681d6fbd15e1617bb3a72104508f04339a2af4efe2e173f919682008f6e10d626f4e734fc5842c9c96e4007c617c
000000003f11f91c10a0b1683f586e32e05f8568c2848c323795205d9160735fd81a0c52c454d9dc73adad45877f38861d8096e246b56db8848d86841827694d419c1610
000000003ea2d6a144b85cc944cc84c9e3e4b17cb60decaff4719847df0bf90c30fb070c1230d78c30be2cd90e8cf931e6b320e8799c61edba9b07fb9ef3c866580a6659
00000000f396a1c6abce816b640ba782bd910d00d2ecee1b6024efcd733bee10a6fe93a0d80a38e286d90d94a70dad5f94a8608b3c28ec2107bcd07e50308c13b93490e2
000000007ddbcd592c297609edd958529c78251413b374aa692fdd066d1203f54397dd2b823f40dd81b1324ea6d5f8b0a0ae16022fbf9aab290d1e60578605e87404b5b4
0000000064496bc9851a159d36befefa9b22c962ddaf495af6c9bbdc33f1dd22134bd213058a3fb9c6995f8ec7d59c9cfc7726e05cb55c3e11635972d2839dda2212bce6
0000000029c74e490ca07c471f33a258df7a52c45ea6df0337f204e6b8d6559f23eeaf75a0a4d4bb5634850d990beba2aec68c4b5a04e9ac64057cddecda3601e5a66c04
0000000058db6b878cdc63c4a1bf270d4fa1c91cfe7374f08be024e16eac52c45b40dba5f5adb1f2314b419145d0044faf79b1321e9edc60be971403a819215e54377265
000000003b9db69b99c26c5858bcbf448fd3c4adb6e0fcc04ddc58999ebb3f31bc64b561f2ce446fb3d7433fdc356554b418e333a4c5f1329df52094392464fd4f68390c
00000000da2bf3d4daa602903f10881ec36e430a8aed41a4dca8085b50062b30d2c5d66707b810d479d12724be36a18828832341e912de2d714fe358d2b4d5fb8d39873a
0000000092c507cd72efe3b44f3b91e8c283fe1ecb0753a75bc1107d51d158cd7cbff430149d1c7a49160d4270083e623a15bee3d40ec3ce540a6d301c61c53b4b77cb29
00000000dfadb16e00f898bb1f181ca18735cf616f86adad6f8326487b70154dc9e82f4a22dd2b6474c0f03d4e34e4d90653cbf57aa0d6641c1a3d16910ec947812433fa
000000000c88cfe2002dcd04cd63571e0b958af2a3b0eef2bd5ad773c710fef166c25eeb5a162268f9ac1aa5ca6b56e2fbafb4bfe71805cfcb7ad33b075f3963581c2451
000000008c762ae62846ce72df633d0b028f11f69826325ea3caebbccad6c76efbe7680ee9e5673ad5389c4a4552b9738ce468b8b0fd9b83e4a595566ee305888a225814
00000000956fa7ab39560ea87330214b9b3fd6da719210b62b3d7969af0976b2653460fad3563ae3a7ab1730a841e328aec286be662a29e20001508214cace375b125105
0000000021f6de9f953e7af026b197c2ee5090a55d15e2aca8fde4a3a8cac2400c84c53c322a5d0c083259665bc1d6ad1038a076aff1cca15317596fac9c08cc8f7f0dd8
00000000839d7f2322585ec4050349e7d01ca38d563cc97dc6267a0d872198c22b3c2896035bce308420071f9655dabe49f15f6a7a06c78f8ea38c4bb64bbd47b1d61cc6
00000000c95dd2be0409ddb792243a9d9d36f8980025b19c14ab3d1bdec9254a1ebedb0be891d9c85ef8d93f6dbf6f929d20aa7d984416a969ef8b41988d7b9157e7d671
000000008af5dd77d8a2700f2594e6206bb4b53dce566becebbcdf9983d14b93151115c58973a1ea01b896023b8d95ca32f1311872e7902a099913d5003b0580c4a9a01d
0000000011c00d82c37e42930bbb574cb7688179610d1dd971f80823df8e5a962fd171a85c7a2e11f5f8bd156afb531c843ddb3432d69a0be75858f3c00c572f1c695a94
000000003723404e41d7f0db5e55a432c4374094be5c27c4868119ad81c071319881b6920ff85e0f82fcb04b4ee9ddf6ef5a0118189833d64a00603bc32535bed9744f24
00000000585ed0f5781bb734a0a611be44f18b163894dde1c1f35dd929c0499eb4a2243d8a6119ea98e4a45ac5a7915434f2d7c9bab0da95261ba7042967f12a0a8dcc2f
0000000048f2d25b34e04eb00e9579729df9a1e3b28de242d1a3d812af6edd5dc06594bb08c1cfeb87a79d65d0b2dd026933f39a4e1f0e2fe06c8042d976764ac279e346
00000000e19904b432095f5a0ed21632e7fc65740500337adfaed8027d48139ca40d24de2d9f19581ac41ed53f178b51f712d98c121acf6aa008e619b6f11e4238b9d2eb
00000000f4ced5fdea7dce9da9564dcf560269d8c3d0be33e10567d3ed4cebb1d2c9a71a9ad490672291bc15afd49265d93c462fa3cc6e49b30abef194ca3b1467801713
00000000979a208d478f204df0a68e203efba7d3aed313e961cff853da291b8a584ca44c2af1e056636d56de43f25b7cc920e7e62a170fde8735f88aa594866f8c06c382
00000000abcf88066916524ce3a1f12e606171cb417c7377f17b9fa7216996eefc39a7e60f134a229980e4b263f2277bd3ba9f8cb181cbae52b22fdc2ee6c867f4a0e67e
00000000092a59280b02773b123ba8cedd954ac69505289ba603990dec33df4167859cf8578d75c078556bccaec89872dc56905379bfd992112e6d0f362c7764d600845c
0000000035a0c4b86be8ddf13600906b47e20994222f9647d5b83442a83aadb4617bcf0d0144e632c9ef326e429c8862a3ebb3f98ce8be081c55b6a4090fae1759330383
00000000dd7d203a0608befb0198831695895cac1b715d071acc71da9e9f0e27e0011bb45ca56bc28a59c0d6f74057fca1f9536c049b395291e7b7e48268b6d2559761b2
00000000b8ec9c15f47e4559957bce9bfdc2983ecb84c5893b8907cf2f849703c9e6b4a19e7a1c4c31044fd1855f221df31d5df66ac5cb2ee1e6b6418356b2561351e2a7
000000006b756a6ec82e932fa31d1828f1d7ce55c27b1344a78c87c9564b5e5024b2ce8f8bebd5f6e80f3d73411be5320ed3ce8f7a7b7db419ed04d6f61af84143f79983
000000001cfe5d0df6f78c5647b21d9abb51400df9686e5f79f3b5b8cae86454bca86e46afb2f7cef780378aa9ac815ab46c0e976d5f87b9bd935da126e4cf4d8b9576be
000000005a985dbe48bfbc22f4d50f129f120ed60300bbfb65fcb617c3bdf84bbfe7b85e5a16b3b269dcf2bbd76252a36d212179617141de83a810983bc1307e694b52ba
00000000f155ac5bba12afd15e9f8b7feed5283ebc0dc9ba015992f88f0231d4f3b231e2e3217fa329f4d28e041af46d90e42f8b57685fdb445ee2d891852697cea5dd77
00000000439ffb42b631cf295611306c52f32fe24640c2f34a4cd31beac473153dd7d783ba7b24322a20349a0253324b8e586e5d559e706e4364b2363e93747c192d84cd
000000003e2c6db597997540e5802dcd3de3f0ea7f4e20640e4cce885eac7656d4e098ad85248f261cf32ca2785fe562c3c68e66c5138d9d37eab55f27960f3ff85e0a51
000000002f04c2110c8bf87ede2302d52ade4e786555cb50d2c896ab0760fd08566472a3084fafcda56b5c319a82f503ce723d798158a4e83d10039087a3428100e251ab
0000000099e2913a237b5b5efe837de89b45e80fccd25d1a69810ff3194104b0d9b6319ecccc04ccf021307afd237fc157a11bab3d8b3dc080fa6558778c36f26076e778
00000000c396125bb762fc4de9ae31036cdacf3f00618ac1262109ba48111e42846a71468adc6f2284b819031947c19b0853c317fd3a4708545b6f8ee10ac7350c210f99
00000000b34a570d940baf146a80461d74596f0596a0227d6f3dcde47d131c076b56b4b7cd5a2a90ed51ee8b879ee58d828442965931604feb34db74868c5fbff1b18c8a
000000001b26b4d83494d6a2dde324f4f5803100464cb4be97e951cdbf613b6b75f616f7188d2cfef5ccda6d6309c022d7bc9d47dc0e748a770981f200c1512047681426
000000004daaea891e528d2a0c84068438a3ea55dc41191275e80bc1d4dc4b4bd4632654658ba4b7048551c01f318dfea4fabeb95eec46e1b3a61f1288006f14fcb177f5
0000000036d3e837c2c295c43ff4dab164e80e0238a549364d7c1ebb99430545af6d68f156580896413cad6bc009c16b82f671cbbb236c8a1895b03b0046e317a0c5e8f9
000000008f5d659182ecdccf60f2db6625a5bebf68e494762b451dccfd3bc507aedc67442f154008445d4ca3a98ef35a9710648ce6920bdf336709e60cf5c9ad33883dfc
000000003685792a5c98dd32456091c3d8632c01de49cc58f8bb8721b7b279d0eb3fde568fd60f2e6df213a14230cac81b6c37c968038fbb229ee4b6591ec5c6befad580
00000000d41438d9192eb3de14b5971bf2e87acbcadc45ac8f8c8afe384a0ea3cb4ada5b4e5f85e3f601cdc15544700643913923c0bfe6defa78c95d0b33f472cf52cdf7
00000000f7c6d1249a9eab0935b3c6c52b32a056deb7736c2a8c7dab2b1e222efdd8859906ef3d1a0f197bdb38dffebf4c75a82fe47047ae92c0eb6148e3d6ae4bbf0405
00000000e78701653afea506dcfc35fa8189511ef4291644761148091cafbafb2b29ab1ae33f2847cf1dbb78a2cd6cd7db466ba62d1de76d0d10bc095868128274563e2f
000000008c7c92a893c930a8d41020c35358857368174116ea8ce822926a9a5f139c9225421201947f16b8a8bbcc18401eed7d767e528fc48aeabfe8bcb0d587045b3859
00000000e5a62a1b331fe7d0657d927e80edd921143a61624ec2561fa1902cc362bf3306638e2f4efbcf2c8a1d62792bebc531ab77ecb9a32680d666c35165bbbe598971
0000000065b04de0efc2c90e87f68d779234592cd5598b91630c2e4c5c86a454b60532d3a5bbf064adfe5354a1439e1370a8a43b5fe8aea16519bcc574d6f166c34632b5
0000000051d4768a0484fd618f264ce8d35db33388c8688e040709049656154f684cef6f3cb5cab73cab802675abef38270f03faca53b9671d52a5c43c80a8805cf8d431
000000008ec92e72d0315831f6acf752e0aad0d55393bfb8f389434d71ccb6b927be8e45afae287ba86a245adbe341fadb4c2c3e379e1f81790734a07626a559e8f9b02e
000000006b641b6a227ddf1de5c3be884172471cc838458add556e9a485bc875ee692ec174128499f38bba1a69fd4e691d0e94d48fcd1b18e3f87311d926abf8c13e47d9
000000002c90c47ea89eda1201123f0aa166b052c83dd47b04c0637c42209bc34b80db07958ad041cfcb410051bcc082f23ff4898ddec3cb92181b054df83faa7300a78f
00000000b951f1ebddf9e4e4800de37547e80cf75fa5623c6bada7744f9a1f43d0d2e5ba2857ab315233e6bb610dd5ad24a0a094bdcf5e3c5aac9aa4119601e4a0664d90
00000000075e24f46f8428083cfe407db8e1f50dc5eaa35682f9323ce0dc7fc867c9d3f91fc20c221caa8d7217739885760ef2502a922ac9255a203edd9fc583a42a38e6
000000004ead2d1adacab97cee8e24a5ca82e06518f04b88b28fe298eec4eff647a9c3179ede53b78093cf7d04c645934aec5d1934763b717792740549fde61414918d44
00000000da9da353996ee362f9978d16fc8038ed043c11e84d537695d648720d2f0b3b8ba6208c1bcc5cfd77a28099ccc409f3f34ac29fde11ad477aa9b81d5c182159fe
000000000d79618bfe61c99d31a9292ddc330c9ac6bede19b84d6fbc8199bc05e51c65b14eb5744b871c6bb90d1897d4b2de63012e7eac091a92dbd6970331b5908e4bc1
00000000cf374858b7b6df1b6b39362c024f34dbbd28b0f1d2e7b08a7c82a46b2a038dcc894d94afaede2c0a888eabe5008eddb67621b62058647fd12bcb060d723fa945
000000005c8b01cbd67e3f61ec11bed761f591741d32a5ece4deb53945e1f612a4abbc232d38bd8052f0b0c273e27e7e14dcef4596ed8641c16b3d0a3f2e5d2f13cbd987
