0000000e1c30bb7822fa3da8f3411d6c4392b619668fe812d987d721379349e37e87f30a4416878a3956a372e25abffacd17fec4ee24880ae2a0ae4e6a7cd17ad8ae2554
ffffff4efd6c4c7724e72f11f603ca0756fb5a547cc8d960ed4096a970d0034024bd4128dd427f964998dd732ea1c561f017d360f7c8c4d708d3d42b297ba6669a0a1a40
fffffdbc2c76e1c1b47202d5f23268d6d6779a751bdaa66d351ad9d53022e607af425ad34c4987d185b39f9fde32ee1f307f867acfc8df413387905f5b55843ed883d07c
000001a48bf94cb5ebeb0619e14655f6633c9a3c71a6a5efd12c54b861e0773a69b0092da01b2ce42535adf73ed1f38f842550a04fa6179afd337cb7f4e11d6f482e046b
0000003cc9d9f9de9a3035163e03539371ba319a1922f849571003a048730becacce5f614adfdcc54a94fae7bc46aac7cf59f345288a25dd7a91c4f1fdbdd641cbf9122d
ffffff4f84c6b95715354c9cee96e4466b83d07b9a56a6e14aaead3637c69919c21357a977b3f4f263b8d6f95fdfcf3bd37c91108bfd58073b69c413d3e602391ab73872
0000006f1c04a7ac599706e863dd8dbe971ba6a447017b19640344087b1a10dcb6c1bfb31d36c8287fbd594c38e6dfa85688e4772f9600cfd6e6285e49fe07f2c892a527
fffffd5979c3bdf180c6950abbbc91681585769b083942df3876832a187b364fbd489bc4777a8828e3ad9cc059bdab6a581151b9b3355c66f3af29475ae11381b788982d
fffffd2682e8c56f7664a9ab5af42b124f2661fd6f1552754dd331b1de8070dcb8ac0c59fb96bae39dae5694c99f1bad0e65d9873540d4d51352a93a78004e9ccc2409b3
000002600d18064e8fbb19b7b1c83a0014b2e37484d3cc18bf3c6007f7ce10f1cc61f06a2439ef85fcd04bf4327345702571879cdc851fddd411c3ecb60c1e3b20618bf6
000001aeeaa9191eb676741d534def406efa20d83aac5c150b6e67dde0229557c3337ef913f14b082a7cdb9cba852191baa0b8aef25255f9454b930b62206be3e890b146
000000013f1468ddaa5ea728f8462155aec3ba616cd9319cc699e73bf48dec6c8e0aa3c857201c4f2b4dee5f10023a5dae70c08ad5a78c69d27254dcdec17034d3e9cca2
fffffdbc53831b87bc8a398d302865d6cfb535dfd32c39a1d4bbdb06295d7b9bc81eb55aa4b2faae26709b147cc2a89e9f11f5a304f2c7c8ade9343148ed8cc68bb42eba
000001c0582175b2154041f0ce5aa83c24005c179881a3958a9a1d68652a6e1cfea75833172e6f31c715d34ee82a9f9fdd417a8e3e471b2029d5e3e943aed0d0c6e9973d
00000212de839d8cdbec32e7280a6ffbeae74dd49b46124de1d664edf0cb843cad45496fd8e9dabec63493e9a989591252852bc042f7e3f550669be7d3556983c6491ccc
00000140fab2b34d14a3a8646dd1dd39278255692e01d4798edc746ca867f0c57d6e7f340a635fc303e9de12ad60fd200e4a8fd45c5ce3c41e3739ad3ac18d63935a4c4d
000002db43164b23d58bdbfd7d380b5214dbfaa1da05c0d48d8e11333d3c19a888dbb01cb5c3f93d982b92a337fcdfa29ce3ca8a489a5caaafaf65ccfef828c599e34b7e
fffffe00a76b8a7a47b1c1ac8a5abe8b0f46b2eb30dc70729d2080bceaef1ea1744e4c8c6f1b3b64f4984ade914969a0d80671206197a592abd9d1c4a3a33965611adec6
fffffe678b1f206bba55fe485d178a73040781cf5f3b93fbb1074bcc60506154c1b710eb233e184fe492c3e3eaa1b2edf208ec74d84532849372c80389e74dba0d471451
fffffe9a20ccb2196079323755fb4cab094e93263fe6ba80b2c35b792e6197bcc1ba4e3edd6b137a95dca73d02362a8fb6162a8a768b325ad698e8df2a1262d3ed7d0267
ffffff091ead5001c753d31d9f42c586126e68a85c1854f900319abd273538bf2cfaba5bee627821411785aa0b94a56020b83030ee09c4dcbada7014cb04808544f7158d
ffffff94ea63293d477cc8ac4bd4c51c9ca63ada68da16f304e44fa1f9e70d81c0fe1b82f7be78afe18da09416803206795097c9a1df24831f165a713cf0964ff4451b68
0000008d61ad9602c8e8e9deda4d8f4bd380fd842605611fc983650fe7707955685460d6277aaeb7d8201378ded0a10549c10e72e5df363069d63344a271188875f6e604
fffffc28a065f8f5a37332f6599b89a36918f13c0afb4d1ffab78b92c3aa8c526c290178447f10373bddb93e9b5556f650717024994dbe1cf5d01ac10d61fb7b99c89134
fffffcc043efc4a9969f5f72c0d6598c735fbc9f8943f0d37854d5694b60363917fd4e83a73486e7998126048dfca5cc3d556d36311ae5ebba5d5daa89aa239245a345ed
ffffffdc69a1a4277ae9409286df5932d8faccc5368dd1f41d67236f0d1c2fb8c74bbcac434c08e6c596b3c1ba59f8dde71a1959b6a4fa4805fc803c26c7febd55849e7a
fffffe4cc67d99974d3f6b5add2ddb258cf2875ad37446bb2d197412e22b3b68c4fcd2e1ab0cce10d61714f30163de05105dd3b815a7f6162ed06c7f40b0cbcb434e1611
fffffc665ec088aa38a746efd9c1579e8a425b7c6dd15e254b9fa5ba519abe268470fdaff7e06e5017ba71b2af3d286b92ac6b3a8ce516b11a5e0a158989217f505a108c
000000f580695a51d94c21737dbe6371f585f1aada47fc475aa76e2b6793423175385642613462f56ac3d6edc956d8240f3964619e3c3145011e727abe55e51869b3e7b6
fffffd7b39b0a2b2b2de568c51f13b0080d0994bbfa5b685a57b771a60f08d39a1810717d3d338124b7921704a82e77e4b50326d14b559fa82ec44382eb285679d0e6061
fffffdb9ae8b5af619199e5afe1f01dc9d6d52c12c73c0aa6c09b040847f6f24d389dd0a676904f6843f7c8063b9da33ed7b69103d7a31ae11ec1893f5453369521683e3
0000014c96bf5a391372e473f8022c052caa593fa38262cef595c8402305f438338bb896337c57fd64a98c9c45b5cf93666dee58a2008216c9725dea6cb7f860bfc1c944
ffffff9257ee950fbc5ba8020d568560a9ddbbab2d24513f88624cb55f01ce1702f1fbafb91f5ac262b2d054ee1dce3e2ebd852255c7cf9f941c1e525057fb8616d34328
00000052371c6ee035adb236ed07720c4099ab788f2fa3346ad2aad74a43072402449e0b85bd904525a8a0793409728ba5d1f777fcd01acef53a5f19e920ac8fd5b60781
ffffffda134460d5f2509fed1c4cce19d2e27214a45e7e33d52f104541ac7f8ceefbc9dbe126010a1aaca46654db5f68aee11da04ff032fc9ec994203ba0d79c73c169b6
fffffcb48b4fe13704ad67ef1f7bbf6830e5f0913510db8e812efc3610a01acc94e2fbcefe038545a419bbd050fdd44f05640d56d78d8aeb14d39b2bca82cbb2958c93b2
000002b91428a6041cee8ef20f50acd14dd0c5a1eca92f5ca785e568f2e93cdf4da369667e2cf715c124c8edd5b656c9d0c2e5373eaa31ecd45a113e071d6ccf47e535e7
ffffff27cc82fbaa08b45dc06c12b839b263fc905cfd65931c6841d26caf127eaed88a71160a5a9f3e3efec97950329acae31e7b94d536dffc3f3dc441df437075aa1b12
fffffd0ad67c664d4792801298ebf3368cedb539c66370c557b980538175456e1965655dc7b3160d799c681c71d33027130fd5f9cd494e4623d49854ed7e436171f2733c
fffffba5cb75908c563a8434facfecea991af9791969d8b989e5b06f7540a319e79c23f2b831f7a654135e8574e3a35dbbc780c536a669405718eaa623bdbee4a33decaa
000000e22477056eb211cbc8a3f4f032d70d8d59cc2d8aac9a817e2e074575afbbb626fe6f26e6c65b6abe76a59c8f3f817225ca30a415c4cab4512d083ec00874ea0842
ffffffab404d858e3a7ba262c34b55d89ec632eb7888d3227aebface932badb3e9d88288f785b60351b983dd401d4bae7312b16dfb22f9e716924fe3fe6739fa790002d6
0000018e1c5763b92b11e9d3828a5586e07964131c7785df8cfdfc71532e7454bf95b793dfa5228ed615a49f195a6f572e4ce1d68ae988d7e6e9bd137212ccd60f47fe08
000000a2f2a7cf0f4a5fbad9752ed51a8e0aab23f8acae5b349908d5c19e144884ae78a67d768fac32a70e8ea37d6e81f86d85b1e2184114adc4143fe57cc2d617921a34
000000c31174a7d3228ca0f391c634fca1cc9bbc8b962d72755cbcb6109e79803a6706bb5427b4249be1785bcb3e292da49c663156d8829194cd0df0900acd9632a407cc
fffffe819374f33d1d8bc735080ebba944f89b6eb0ef1e74bed926715b1de6987626f05eb3ed4c13ed42337e20bcf65818eb4473a1b6880ad75585e6010061bfa25c1688
00000076e262ab9ebb17327e8e1b89f7acbfc0b2e7b1024f73e887af8567996c30f1bac0fa6632823ba288f6d4e09ce7b3a790afaefdbda38913b33d65f4e65fb75c0cf2
fffffef9700b21f2ce5421386eb0cbfbb6ba6dd37582e44730f481f89f45c7143d2bebc4b4fe3724bd2e0c92be54f49d1c6235749901fe45c8871327d125dc7f90a3095d
fffffed891b052a3b506c4cb5a940443cc674ae604565f0753af9a1ec6d0f12920c6109e54d3f4e50d2d77e5d6caf2f796612c16922b99d026b385b0eb2c001ff68e0ba7
ffffff738840b007a9f5b3bb01e2b34df2b06cc3cb87c92f878deb5ba6a5dcb02d7356c2996036cfdfdf51aa8ec30f7d20485b36633f86e3e5ace86ee696d991a86fdce7
ffffff6b2dd59eabca067e924d955e8fa28e2f0144db0c58fc684b5b91907805b50d7c8fdad70e5491b3cfb5c55b6ddae8a5fc31d5b25f12d74d2a82a9979636e6555114
ffffffe6f7564316d99b95c6cd28df195d40b8b09434e63da075efc700e50d248ae635b07cde03a93ad53809ed7d86c81ee9b507a2ab60715f5e445a8f81f5be36ec182b
ffffffc108d9d68efdc69bb75e0b60eed8c22d7099b492a5f51497a725462f4420fccf4ee32b43b1bc7b5b0e8e4c6ffd73ba8f78d6bfc757b87aae112f35d2849f8690c7
000000509bce675142fdefe2cb50c2f4762f49991ad254327e4a1270ac698c98c6af0d0812349034c69a227d7dd5bf0acf3608dd2564fae667a1bf6a150fda7da7c488c9
00000018b692f6f118899ef469bdd089d7f49fa9ec1929e10616d257ea4b7dcbcab0e47c44362a8f776777b6fa46186019a70ce15fb4caed198a71f581a304e134270ecd
0000007a0758feae69eeb196bbc7e6ac7aa6f1da8c30f232bd96aee9bd5ddc690c905ad337fa9fb841d53a985c962622d98bdec523950cf76ad2021e003556712ffcf31b
fffffd32b0cddeb8ef8e9d28584e1bfde78c11267fed925181421208d344991f59e8f8ab6e89178ed93c1542bc0fbabea79c3f502f3abbf382d87472ce5db3d546227def
000000fce511b66c23d7555d0ce90ccd2408cb4ec33e5e8ea7304c0ef90173c5051e28b9d9bd2a6c785ec2d47ae4c6b089d25b4491140f7efcf39a67b21117c160377a0a
00000250d8f4dce6b28c7144d86d9adcca2f04bba5d7a62c18e4446a61ed6a91cca34eda7b6d741071c11b4240cd76c4b7ce0d66cb9451275cd3de4dc772e1aee8d22a92
fffffe3df2c694ee4bc9802b172c88a9a3d44a434c32cc371b7786118e5608d17727754bfaf9dfbcdb0c2d57990158e28d10dd999cb14a757efd55da154f23edfde6be0b
fffffc6f0687f26540bc74bb865dd4513923bbee0160fddffa655f75d66dca0b0bd3f95786d827a80a5c3f54ece80da84c2955b9c314d0fbd722e1401da7bd658769c69e
ffffff95dd8c76efbd5f9556adbd54649264ccc863f3a2fb758acbf46b75d72bc728a03b878af6bf8a676aef46e50bf4be485c088952590469b38b091d9f87b1772d47db
0000018949bc60d7656da472f9d7e2d1ed877343bdd063337dc21bf57654aa098e9719c69c8cd729861367cd48dd3a006ac7a2273431064e690a76351888fea8c2af810b
000002413003511c27b826fa6a218dda5452bc517c8f811ca173213b0dca642e5665d3c4794b52549e3968e6b1771c71af16f4253cc5dbd84bce6a4fafd6dd66a2b7d8bd
0000000087e02c7aa19e4cf46b8be06453eb7da5537dd7f719fd8c5110d4bf5c6babca321572dc8ffc02ac69a5286c194ae5998df07c14b3aa9d902112dcfa09cae34489
00000000b827a5bbb93bc68183fa2119e704b0dde13053aee50b0d6956e4981bbf7bc3a36c68443449c8eb48ef22489b844276ef7d4a41293e094a9fa71e152933f039f2
000000000c44ababda9a6fe97661dabdec34655452906a50643af523b9ce0b9fbff5aed8a8a5d3e889f84801bdeecbd267cd3f6a2f4399380bd16f4491a530f6aeb26e1f
00000000b22630caf06fe0d5a9b25b53ab6b779f2e7c1cb53840302f5aa91fc2e6818106244b041d166a10239bdcca0ea42e0cb8a70185a8b298abc47364a4653c7112c7
000000006e8b93b736dc1a66511f2e5c79669554fb5543564b06937540c4b9835e273fb2696ecdebb8f09460f433192d91322af5c173f0bee0f3d8224c8d0231f534f386
000000001930fda801b47aad96a95c8c1373a07df9abfa9eb2020979d2c0a2103a4eb469c7231521423ea7a4e5d1a7874d562388bc60e9a759f965edd8ed851d685f8557
00000000806aea2fb770c77dc96bfb84327c86658a22fc640b19bc9fce5cef28de78c4e4ce7c812beed496bced052299bd42fbcf4b01462d5845d6f6c58f840d1257a488
00000000f89e8767b082c3e5498138538a2090e28e3551bbb0476f749da6b68fcfc76cd053853fdad944a0826e47b0b71019912969d657d06cbdc665e9229f9fe3e97faa
000000002299d70224c12f006a1cbd7823cf7f7cd0b3c59192324197945d4599262c3832f6daf341cddf26f6c0ded6ea10bf147e7fd1022ef11417ea1e43271bb7999156
00000000d5ec6dcd42a34aca299ab68728b9c6021167268905f5461751786712918a4b4a676ea923725e3615cbd3947e84fa514f78e04f50b47a5f50701ad4185f88d475
000000006de302928dd68466f8f51378b93a19779bd1aeb3aee429711a940e41129020b65d6aa7c390d8119cd267cd4590c1881c68baef41837cc949e9525899a09c3905
000000002efe729a7f1680681ee37abf4911af989ade12ece1f121f1be1e7772c8d7462cdc971b8beaee98f730a8ea67001c593e2177d4e767ffe0053590a15b06dc193d
0000000044024bc5fe285e55bb0d6782d4b4f342b1b7e64b93f365bcc22a00a79cb4adc1b4741cc7c1012bd70a39bc71a084560783aa9c93615dfbfabc25f52b3b3bb4dd
00000000ed32e5a8f6807fda36b9478163fea5fcf6fe07bfa91aabae1518bd65a410b43f60b6eddc3a5cbaa65a3e358d63c703833f1af6e10ba5c142b2d6f7c95f9a2ade
00000000df597447c19bb8d7148b7038b8d4852dc65b8c486574f5ef6fe3cca960f02af204d2ced6b8faa415df28649691f49d7eb1c687f948d71b90fa367fc706feaa50
000000001e35f7536fa51de69f9221b3b1e1c98414098fb9c168d4a342b11d3db791ef6e5dfd738bac75095dac0b54c448d1d0e014d2299b0a476684903efbbdf66a89c9
00000000cb6acd1905cdfa5fac0acb57ce39306e10d1ca2e58c457604e7f0d5cfeea121eb1e8bb6ad10306608c59e055330af1db98a9b3d66b00074395346761aff53312
00000000481617b4da33c9d7e110307ef71c6db8afde67b4851613e3bb56aba8ec0d8f83277d32fd5f7dbfccfc27bd7603dd306c001cb158a4324f1169d9bcbe48d3ded3
000000007b30032c78e49bc6f6b8fd79d1e4a5591e1f07096cb25b6bf27db0906660a7944035a371cf6f9f80fa883636fed5a77f8e9eb1f7445d4345addb240d24d9401c
0000000098d65ab35465a8741caf7d93255942c76521286070d5e79d722ac63c6478e9810e18e5daddb7e6d8478ea1bf758e1f78e523cc4b001d4786c7f86428f51b00f7
000000001f00a0b269f13a7c8fd4cf238cdee3c066a540f867f6e6b4a924f56dd2d322d0c2bb6ee6bb7e96990c0179325e2012a7d3cd798a49b8b5513e802527959da870
00000000d25906557dfce1a70220045182c3a92a54308f52a7045095595a1d48111919c91c122d660e25a7b77bfb8811a4188859d78fc3f666d24cc3516140264d6ce7b4
000000008108e705aafa18e9285a04fd1d9d3ff8c11f7fba4343ed1ac89120759d3c835c7595fd0d8ce818564890ad737d7f6eacc42c128eb951154e732009ed19daf712
00000000ac95123222ca98973e9e44f8ead3e342bd1642fe2d91fe486c6d2fbce614db7baa75c31b4a78f917fe0997ab55906ac2fdad9f2d5a613e3a51c4fa5ebcd64031
000000000e539765a81213ec787123e1fa0a2a583dc1647e19b7299563376f1db6f74b0c3a2ef1c16f2ef5d25165edfba299ebf3f0292c60252afd9eaa6eed370dc72d05
00000000fcd1aecdbad702318ecafc06e55ded89d560505c0cbc601284f907923433fa65a80ba476a51d4e1b90591e2a93d3cbba179f6a68bf6d2fbc5fb996f5c200d03e
00000000e3c44b23e5321410a06a1c8a662567a86c12ed0bd89f7db5355cabcee8eb34f070337ebccfc1795597e6422c4aae6085d170cd7d1af83e8678b11df2e1928d7b
00000000e906a1d6fc6d998b794f66e59c64f896636f8a99dc0e2bf7adc8931bc25ba6815b94e07c5636297aad830a552a934bbac3e1658674d12b825a49e5c4da78060b
00000000c7e0cbcc8600a13ddc7cf6f1d501cabca3f33ee1ac12b3888b86e1add21024339224e7326f9c375000a7081ea3603fda73100742c894881ab36843552b1836d8
0000000098dccea93a9ae58f0e39324de6fb0d66e1a5ab6d51070dc77c16ef02b10cf3befaf0bd94ca1c47fbae488c6167d3a75389ccc62d121427ba06ea5c086fb27b47
000000007836eb0dae23f8b36176a66879b3e24362d7207d4d2972b5c061356ea22320de28a5b5a54298ee078fc96c4968b8d15655e376e80bbf677845103c999cacf9df
0000000062a7f5ccc7a7fb32d68179255ab3924064d56fc798e92f32bde118a35e501773c8bafb13d82dd65b35b1c766e818134c024a7f59b464cf9060e93c3c78f09136
00000000bd37f36afaecb7e9f70bf42cb837c49a523d165a2e638b17dfd4f8e64f28924e814dbae597870fe1faaf5d7282df241f90f599c786e82f5213f8b7b349dc3c8d
000000003e9f4a9146fa5fdca98362af8971706b1e034f7e80019c1b9376a40cb075c4ec022d5efed2880738de7a53028ec8e08287f200032d94d7b00a43a842e3e902cc
00000000c020d4b65229ed4c3cce50587b062b536843fc739126e3e08cf389578e0dde0be46064f85c4585a533981b99c3883bd30725b1bb0adcdb6708baf75db7ee6dea
00000000fc79a4517b5d80cd9abf47a88312ae3e1516128ab9f2b515c3065c938e758aa8177b945d6342d8d29123beb0e42719908722b0b3d83cf28ffd4a98ab4d6005db
000000005120dd20250a6f778f71be4427c951c34dc19e27d09d9853769c806257f95f8b40c83815c23aa335b4fa8ea2d9faf3d500689bce368104d4a0cf34ae62aa4ba2
00000000baec3533d1f2fcd738f19883108a28d70a60e230872bf53770b1fd2a725a6fd64a69dc05942b724e2c84791a835a64cb4829ead6515a4d1eccfa7d9cc7f17452
00000000815f38c1de55b07036db7844cd9e79887c94f41d84082672e05ac6a119d62f1a55ed3ed9e3e7ef9b8fad452170144ce89d6bedd961bde905f21d014197a15fab
000000004fa75b8c73cd5e5182407fb900bdc10ed976ab820b84fe25091c3af3c6abb746141f66d2f7d82ccfe343ad92d69be034e395876197201a477e0e35af05656e94
00000000fb1cb785205a85b28c3f078c8e68c62796bedc98e487e8388758c8d1d86e9431e02c518e2882c454a804998383ac44921750147450816666cf3b00bbdccb341a
00000000bb3ab3155c53eae705c29463c15d80717c174e2ee6907d09d0db54e1a2f6a60aac9dd405100f1165978fdb91e81526f79f57ef99fc00fd38db9cd28e9d4f19ea
0000000071e70f95f0a480ba686957dbf60400d9d46724754df836cba5b136e10ac8342a9583167edab7c1af489c9a52ac8f24bd3b0e3597579c8558a5c2f2aec7a0648a
00000000fa04ccdc0930719c78754d2115a770b15b0c46084233a4377705cbaf8aa2dc4328ca025ab97ca9b5e021cc987dec7aacc7cc2d2cea2b4e52105db8fedb868901
000000002e27010557fabc67bfd4c3549225b6c697322ddf3a30122ba5d50f179ccfa338cfce59e3a51beb4a9d6b6ede5b7969cfe365d3e1b27bd4aa1b81c2184a90d22e
00000000d18defebc10a59a398083289a3c86c37629f85e38b56a52e6c548e98032097fb5067fa41a50a5756951efdfcb1fb4e7a8cf4d3271d8d25c3b638326e6e31123a
00000000eaabd12782e4ca257fe4d24ca05015e233aabeaaf5c20426040fff89027bb9dfeaa204b42ed2558fd988c447a70923dc0235f98f6876f8411e2557ee534aeaeb
0000000055db40642e30125c392585b1bf3a4de11edb1918d3b63dc1cbd90e382c8ef82ec759d301a05a83d03891167b4297f0d2ea944d868d151b6faa246b7929b4b4d2
00000000f197fdbc4be966b328fbda119e5501ede125292d470028b694bf994c7c0ad874eccc9e0190176e8befdefbf32dfe4e1df0b0f95b506fb3c0a71a8d5cb7cfb98d
00000000a3dd57deb39eeab221f4691ca922bec86a78da0094d1787aadf7f36f0c09745ff33662998bad1ebffa3c95d0aa540d3574af02ae13530bc003ad9dfdf62b823e
000000004c9272dd24029469236c16c35a6b0ad177738148b641e1244ab68a2618e9927c1b4dfbd95d489d7f2f32020be43116b2e3cbeaf813366da835902d9b04941134
00000000900b8dfca27dda1f5d92059d983878f899d3f545cf759bc781fe18df8ee1438684073f5d0b68a51b5f9ff792efdd9352edc41442f26ee09657456e65aebf52f0
0000000074a437e8863d592f6426015d0c778dbd15bc078f9bad87e63aee1bca7bb87ffeac10daa7c3120491634ed9fb0c639c033ca19e339fab4af5878402a3216febe9
000000009a61604f743a021337ac3b3f6886e443b80f3775015e70ec98a7d63dddf08f7bf472a38c4a8766dc0ccba45251e351030dad36983134a3b644b29141904a83cc
00000000f208cb997fe2b7b25dfc744cecf2ce7dd87d41d32dd807d69b38584db650d9f32b689a409d4987db106dbaecf2f477dd1ccd918b9d49da6697f18aa1a35d1ead
00000000e32e15e57df0f0f46859e6382862220b20e7de64a11c6a4304c50c3532bbd8304284462d4b31759b4761c9df9eaa02e6ea785b7d66ed8a97092b9f2e7c3844d9
0000000060d96c6bb3d0cecdcc6175a95f6ae9b7534a8dd7f0ba35239669133e366682bfe5a3478283b0f4e5ca155763550e757d1d0f1273fa138ca4cabc06f5cf7720b4
000000002495ec7821ebd30bcc49cfed2da36bc8f16be403abe5eb89d1c7a68bad627b875296fe48ba439353e6eff53879b7c776dd4c9ce227ea251fd3668a0ee80b6992
0000000029792712b2987b0c314c95c5ef1fd57f46e6a7e6dbc853a412eda9d11290df408f085d38015a3a0f52fd0279d6f230e39e838657db74fef1250dd0103d41f5a8
00000000af9b4508e58b3f1a5fba67d3f73f818f77f98f52e5654034b4d68ec0c7ed9e378dba5d746f0699b76f5ec6cf0b105258464ccb89482e8bd999dc5dd5e9778e09
00000000707dbf6771e4824946ec1fb0c06e04766f37a3bd0cf685608c1315f349967857df2aed3f685670a2ab16c55342f235554138f4c6491f2c18ec213fd588248ba3
00000000203ec0fc71858cd33aed2b265e6d7502b05688a65d94d945aaeb0ebd5f06e585cb9291895dbd114206de8b188842a5cc4ab99bd3cbad695f49e7742009f07753
00000000c703c0fc3330beadb1977492bc6c63bc77643796f268fd731198477fd7cc217e8647a3c9ef3311efda6831102b1425a15ca4b6af696649c37a7b78da71df3fdf
00000000677294aee2364a5070bc1aefd722979cfe3ca4ac183a7cee2d9a09552d31a0408b37e8610570071032a5e736d23b44b617563a9e1dc6c129ca3b8f286a171442
