62a050bd6e38
129b16aa5c41
1610753a387b
402f6d714e13
3545ee53600d
2fbe7a175a43
6ed603403d4a
328d181c201e
00000000252c
00000000113e
000000005f07
000000006d52
000000005e24
000000003f65
000000003c6b
000000001745
00000000624d
000000006569
000000007a09
00000000765f
000000002354
000000006e4a
000000006b55
000000000f1f
00000000513c
000000004a1b
000000001e35
00000000566e
000000005c68
000000006828
000000001875
000000007d0f
